{
 "version": "1.0",
 "truncation": null,
 "padding": null,
 "added_tokens": [
  {
   "id": 0,
   "content": "<|endoftext|>",
   "single_word": false,
   "lstrip": false,
   "rstrip": false,
   "normalized": false,
   "special": true
  }
 ],
 "normalizer": {
  "type": "NFC"
 },
 "pre_tokenizer": {
  "type": "Sequence",
  "pretokenizers": [
   {
    "type": "Split",
    "pattern": {
     "Regex": "(?i:'s|'t|'re|'ve|'m|'ll|'d)|[^\\r\\n\\p{L}\\p{N}]?\\p{L}+|\\p{N}| ?[^\\s\\p{L}\\p{N}]+[\\r\\n]*|\\s*[\\r\\n]+|\\s+(?!\\S)|\\s+"
    },
    "behavior": "Isolated",
    "invert": false
   },
   {
    "type": "ByteLevel",
    "add_prefix_space": false,
    "trim_offsets": true,
    "use_regex": false
   }
  ]
 },
 "post_processor": {
  "type": "ByteLevel",
  "add_prefix_space": false,
  "trim_offsets": false,
  "use_regex": false
 },
 "decoder": null,
 "model": {
  "type": "BPE",
  "dropout": null,
  "unk_token": null,
  "continuing_subword_prefix": null,
  "end_of_word_suffix": null,
  "fuse_unk": false,
  "byte_fallback": false,
  "ignore_merges": false,
  "vocab": {
   "<|endoftext|>": 0,
   "!": 1,
   "\"": 2,
   "#": 3,
   "$": 4,
   "%": 5,
   "&": 6,
   "'": 7,
   "(": 8,
   ")": 9,
   "*": 10,
   "+": 11,
   ",": 12,
   "-": 13,
   ".": 14,
   "/": 15,
   "0": 16,
   "1": 17,
   "2": 18,
   "3": 19,
   "4": 20,
   "5": 21,
   "6": 22,
   "7": 23,
   "8": 24,
   "9": 25,
   ":": 26,
   ";": 27,
   "<": 28,
   "=": 29,
   ">": 30,
   "?": 31,
   "@": 32,
   "A": 33,
   "B": 34,
   "C": 35,
   "D": 36,
   "E": 37,
   "F": 38,
   "G": 39,
   "H": 40,
   "I": 41,
   "J": 42,
   "K": 43,
   "L": 44,
   "M": 45,
   "N": 46,
   "O": 47,
   "P": 48,
   "Q": 49,
   "R": 50,
   "S": 51,
   "T": 52,
   "U": 53,
   "V": 54,
   "W": 55,
   "X": 56,
   "Y": 57,
   "Z": 58,
   "[": 59,
   "\\": 60,
   "]": 61,
   "^": 62,
   "_": 63,
   "`": 64,
   "a": 65,
   "b": 66,
   "c": 67,
   "d": 68,
   "e": 69,
   "f": 70,
   "g": 71,
   "h": 72,
   "i": 73,
   "j": 74,
   "k": 75,
   "l": 76,
   "m": 77,
   "n": 78,
   "o": 79,
   "p": 80,
   "q": 81,
   "r": 82,
   "s": 83,
   "t": 84,
   "u": 85,
   "v": 86,
   "w": 87,
   "x": 88,
   "y": 89,
   "z": 90,
   "{": 91,
   "|": 92,
   "}": 93,
   "~": 94,
   "¡": 95,
   "¢": 96,
   "£": 97,
   "¤": 98,
   "¥": 99,
   "¦": 100,
   "§": 101,
   "¨": 102,
   "©": 103,
   "ª": 104,
   "«": 105,
   "¬": 106,
   "®": 107,
   "¯": 108,
   "°": 109,
   "±": 110,
   "²": 111,
   "³": 112,
   "´": 113,
   "µ": 114,
   "¶": 115,
   "·": 116,
   "¸": 117,
   "¹": 118,
   "º": 119,
   "»": 120,
   "¼": 121,
   "½": 122,
   "¾": 123,
   "¿": 124,
   "À": 125,
   "Á": 126,
   "Â": 127,
   "Ã": 128,
   "Ä": 129,
   "Å": 130,
   "Æ": 131,
   "Ç": 132,
   "È": 133,
   "É": 134,
   "Ê": 135,
   "Ë": 136,
   "Ì": 137,
   "Í": 138,
   "Î": 139,
   "Ï": 140,
   "Ð": 141,
   "Ñ": 142,
   "Ò": 143,
   "Ó": 144,
   "Ô": 145,
   "Õ": 146,
   "Ö": 147,
   "×": 148,
   "Ø": 149,
   "Ù": 150,
   "Ú": 151,
   "Û": 152,
   "Ü": 153,
   "Ý": 154,
   "Þ": 155,
   "ß": 156,
   "à": 157,
   "á": 158,
   "â": 159,
   "ã": 160,
   "ä": 161,
   "å": 162,
   "æ": 163,
   "ç": 164,
   "è": 165,
   "é": 166,
   "ê": 167,
   "ë": 168,
   "ì": 169,
   "í": 170,
   "î": 171,
   "ï": 172,
   "ð": 173,
   "ñ": 174,
   "ò": 175,
   "ó": 176,
   "ô": 177,
   "õ": 178,
   "ö": 179,
   "÷": 180,
   "ø": 181,
   "ù": 182,
   "ú": 183,
   "û": 184,
   "ü": 185,
   "ý": 186,
   "þ": 187,
   "ÿ": 188,
   "Ā": 189,
   "ā": 190,
   "Ă": 191,
   "ă": 192,
   "Ą": 193,
   "ą": 194,
   "Ć": 195,
   "ć": 196,
   "Ĉ": 197,
   "ĉ": 198,
   "Ċ": 199,
   "ċ": 200,
   "Č": 201,
   "č": 202,
   "Ď": 203,
   "ď": 204,
   "Đ": 205,
   "đ": 206,
   "Ē": 207,
   "ē": 208,
   "Ĕ": 209,
   "ĕ": 210,
   "Ė": 211,
   "ė": 212,
   "Ę": 213,
   "ę": 214,
   "Ě": 215,
   "ě": 216,
   "Ĝ": 217,
   "ĝ": 218,
   "Ğ": 219,
   "ğ": 220,
   "Ġ": 221,
   "ġ": 222,
   "Ģ": 223,
   "ģ": 224,
   "Ĥ": 225,
   "ĥ": 226,
   "Ħ": 227,
   "ħ": 228,
   "Ĩ": 229,
   "ĩ": 230,
   "Ī": 231,
   "ī": 232,
   "Ĭ": 233,
   "ĭ": 234,
   "Į": 235,
   "į": 236,
   "İ": 237,
   "ı": 238,
   "Ĳ": 239,
   "ĳ": 240,
   "Ĵ": 241,
   "ĵ": 242,
   "Ķ": 243,
   "ķ": 244,
   "ĸ": 245,
   "Ĺ": 246,
   "ĺ": 247,
   "Ļ": 248,
   "ļ": 249,
   "Ľ": 250,
   "ľ": 251,
   "Ŀ": 252,
   "ŀ": 253,
   "Ł": 254,
   "ł": 255,
   "Ń": 256,
   "an": 257,
   "he": 258,
   "ÑĢ": 259,
   "Ġâ": 260,
   "es": 261,
   "§Ã": 262,
   "Ã§Ã": 263,
   "Ø§": 264,
   "Ġa": 265,
   "Ġt": 266,
   "ĠÐ": 267,
   "ĠĠ": 268,
   "ĠâĢ": 269,
   "'t": 270,
   "00": 271,
   "do": 272,
   "in": 273,
   "ll": 274,
   "re": 275,
   "¼Ð": 276,
   "Ø¨": 277,
   "ÙĦ": 278,
   "Ġs": 279,
   "and": 280,
   "Ø§ÙĦ": 281,
   "ac": 282,
   "ain": 283,
   "br": 284,
   "er": 285,
   "gain": 286,
   "ld": 287,
   "ou": 288,
   "ow": 289,
   "£o": 290,
   "¸ÑĢ": 291,
   "Ð²": 292,
   "ÑĤ": 293,
   "Ø±": 294,
   "Ø¹": 295,
   "Ùİ": 296,
   "ðŁ": 297,
   "Ġw": 298,
   "ĠÃ§Ã": 299,
   "ĠðŁ": 300,
   "hell": 301,
   "Ġagain": 302,
   "Ġthe": 303,
   "ĠÐ¼Ð": 304,
   "hello": 305,
   "!!": 306,
   "..": 307,
   "::": 308,
   ";;": 309,
   "??": 310,
   "Se": 311,
   "em": 312,
   "it": 313,
   "le": 314,
   "mb": 315,
   "nc": 316,
   "ol": 317,
   "or": 318,
   "µes": 319,
   "¸ĸ": 320,
   "Ð´": 321,
   "Ð¹": 322,
   "Ñĥ": 323,
   "Ø©": 324,
   "Ùħ": 325,
   "ÙĬ": 326,
   "ãĥ": 327,
   "ä¸ĸ": 328,
   "çķ": 329,
   "Ġ-": 330,
   "Ġ1": 331,
   "Ġ4": 332,
   "Ġc": 333,
   "Ġl": 334,
   "Ġm": 335,
   "ĠÂ": 336,
   "ĠÃ": 337,
   "Ġí": 338,
   "Ġand": 339,
   "Ġhello": 340,
   "ÑĢÐ": 341,
   "000": 342,
   "Ø§ÙĦØ¹": 343,
   "aces": 344,
   "ldn": 345,
   "ouldn": 346,
   "ĠÃ§Ãµes": 347,
   "ĠÐ¼Ð¸ÑĢ": 348,
   "ä¸ĸçķ": 349,
   "ä¸ĸçķĮ": 350,
   "'s": 351,
   "'v": 352,
   "'ll": 353,
   "'re": 354,
   "23": 355,
   "56": 356,
   "89": 357,
   "Ca": 358,
   "ER": 359,
   "Mi": 360,
   "PP": 361,
   "The": 362,
   "Tit": 363,
   "UPP": 364,
   "Xe": 365,
   "ab": 366,
   "ar": 367,
   "at": 368,
   "ay": 369,
   "az": 370,
   "aÃ§Ã": 371,
   "are": 372,
   "bem": 373,
   "ck": 374,
   "car": 375,
   "day": 376,
   "et": 377,
   "ew": 378,
   "enc": 379,
   "fo": 380,
   "gle": 381,
   "how": 382,
   "houldn": 383,
   "im": 384,
   "io": 385,
   "ick": 386,
   "ji": 387,
   "ju": 388,
   "ket": 389,
   "lin": 390,
   "mp": 391,
   "ns": 392,
   "nt": 393,
   "nu": 394,
   "nÃ": 395,
   "ndo": 396,
   "new": 397,
   "ov": 398,
   "oday": 399,
   "oji": 400,
   "pu": 401,
   "paces": 402,
   "pare": 403,
   "qu": 404,
   "tu": 405,
   "tab": 406,
   "udo": 407,
   "undo": 408,
   "you": 409,
   "ymb": 410,
   "¤í": 411,
   "¥½": 412,
   "¥æ": 413,
   "©Ã": 414,
   "ªŀ": 415,
   "¬è": 416,
   "®Ã": 417,
   "°Ð²": 418,
   "°Ð¹": 419,
   "µÃ": 420,
   "µŃ": 421,
   "µÑĤ": 422,
   "·Ð´": 423,
   "¸Ð²": 424,
   "¹ãĥ": 425,
   "ºcar": 426,
   "½ł": 427,
   "¿ÑĢÐ": 428,
   "Ã¡": 429,
   "Ãī": 430,
   "Ãİ": 431,
   "Ãķ": 432,
   "Ãľ": 433,
   "Ã©Ã": 434,
   "Ð¼Ð": 435,
   "ÐµÑĤ": 436,
   "Ñģ": 437,
   "ØŃ": 438,
   "ÙĲ": 439,
   "Ùĳ": 440,
   "ÙĴ": 441,
   "ãĤ": 442,
   "ä½ł": 443,
   "å¥½": 444,
   "æĹ": 445,
   "êµŃ": 446,
   "ìĬ": 447,
   "ìĸ": 448,
   "Ġ(": 449,
   "Ġ0": 450,
   "Ġ<": 451,
   "ĠI": 452,
   "Ġ[": 453,
   "Ġ{": 454,
   "Ġdo": 455,
   "ĠØ¨": 456,
   "Ġbr": 457,
   "ĠÑĤ": 458,
   "Ġ..": 459,
   "Ġ::": 460,
   "Ġ;;": 461,
   "Ġ??": 462,
   "ĠSe": 463,
   "Ġit": 464,
   "ĠÙħ": 465,
   "Ġãĥ": 466,
   "ĠØ§ÙĦØ¹": 467,
   "Ġä¸ĸçķĮ": 468,
   "Ġ89": 469,
   "ĠCa": 470,
   "ĠTit": 471,
   "ĠUPP": 472,
   "Ġbem": 473,
   "Ġfo": 474,
   "Ġhow": 475,
   "Ġju": 476,
   "ĠnÃ": 477,
   "Ġov": 478,
   "Ġqu": 479,
   "Ġyou": 480,
   "Ġä½ł": 481,
   "ĠæĹ": 482,
   "ĢÃī": 483,
   "Ħĸ": 484,
   "ħĮ": 485,
   "ĨãĤ": 486,
   "Ĭ¸": 487,
   "Įį": 488,
   "İī": 489,
   "ĳį": 490,
   "ķľ": 491,
   "ľ¬è": 492,
   "łÃ©Ã": 493,
   "any": 494,
   "angle": 495,
   "ÑĢÑĥ": 496,
   "ĠâĦĸ": 497,
   "Ã§Ãºcar": 498,
   "Ġare": 499,
   "ĠaÃ§Ãºcar": 500,
   "Ġtoday": 501,
   "Ġtudo": 502,
   "ĠÐ·Ð´": 503,
   "ĠÐ¿ÑĢÐ": 504,
   "ĠĠĠ": 505,
   "ĠĠĠĠ": 506,
   "ĠâĢĵ": 507,
   "ĠâĢĶ": 508,
   "ĠâĢĻ": 509,
   "ĠâĢľ": 510,
   "ĠâĢĿ": 511,
   "don": 512,
   "Ø¨Ø§": 513,
   "Ø¨ÙĬ": 514,
   "Ġshouldn": 515,
   "Ġsim": 516,
   "Ġspaces": 517,
   "Ġsymb": 518,
   "Ø§ÙĦÙħ": 519,
   "acket": 520,
   "braces": 521,
   "bracket": 522,
   "ers": 523,
   "own": 524,
   "ower": 525,
   "Ð²Ñĥ": 526,
   "ÑĤÐ²Ñĥ": 527,
   "Ø±ØŃ": 528,
   "Ø±Ø¨ÙĬ": 529,
   "ÙİÙĳ": 530,
   "Ġwe": 531,
   "Ġwor": 532,
   "Ġwouldn": 533,
   "ĠÃ§Ã£o": 534,
   "ĠðŁĮį": 535,
   "ĠðŁİī": 536,
   "ĠðŁĳį": 537,
   "Ġthey": 538,
   "Ġthere": 539,
   "ĠÐ¼Ð°Ð¹": 540,
   "!!!": 541,
   "emoji": 542,
   "mbers": 543,
   "nctu": 544,
   "ols": 545,
   "olÃ¡": 546,
   "oraÃ§Ã": 547,
   "Ġ--": 548,
   "Ġ123": 549,
   "Ġ42": 550,
   "Ġ456": 551,
   "Ġcan": 552,
   "ĠcoraÃ§Ã": 553,
   "Ġlaz": 554,
   "Ġlower": 555,
   "Ġmundo": 556,
   "Ġmany": 557,
   "ĠÂ½": 558,
   "ĠÂ¾": 559,
   "ĠÃĢÃī": 560,
   "ĠÃłÃ©Ã": 561,
   "ĠíħĮ": 562,
   "Ġíķľ": 563,
   "ÑĢÐ°Ð²": 564,
   "Ø§ÙĦØ¹Ø§ÙĦÙħ": 565,
   "'ve": 566,
   "MiXe": 567,
   "atio": 568,
   "ence": 569,
   "lines": 570,
   "mps": 571,
   "ntence": 572,
   "numbers": 573,
   "newlines": 574,
   "punctu": 575,
   "parens": 576,
   "tabs": 577,
   "¤íĬ¸": 578,
   "¥æľ¬è": 579,
   "®ÃµÃ": 580,
   "¸Ð²ÐµÑĤ": 581,
   "¹ãĥĪ": 582,
   "ÃİÃķ": 583,
   "Ð¼Ð¸ÑĢ": 584,
   "ÑģÑĤÐ²Ñĥ": 585,
   "êµŃìĸ": 586,
   "ìĬ¤íĬ¸": 587,
   "Ġdog": 588,
   "ĠØ¨Ø§ÙĦØ¹Ø§ÙĦÙħ": 589,
   "Ġbrown": 590,
   "ĠÑĤÑĢÑĥ": 591,
   "Ġ...": 592,
   "Ġ:::": 593,
   "Ġ;;;": 594,
   "Ġ???": 595,
   "ĠSentence": 596,
   "ĠÙħØ±ØŃ": 597,
   "ĠãĥĨãĤ": 598,
   "ĠØ§ÙĦØ¹Ø±Ø¨ÙĬ": 599,
   "ĠCaSe": 600,
   "ĠTitle": 601,
   "ĠUPPER": 602,
   "Ġfox": 603,
   "Ġjumps": 604,
   "ĠnÃ£o": 605,
   "Ġover": 606,
   "Ġquick": 607,
   "Ġä½łå¥½": 608,
   "ĠæĹ¥æľ¬è": 609,
   "ĠÐ·Ð´ÑĢÐ°Ð²": 610,
   "ĠÐ¿ÑĢÐ¸Ð²ÐµÑĤ": 611,
   "Ġsymbols": 612,
   "brackets": 613,
   "Ġworld": 614,
   "Ġ4567": 615,
   "ĠcoraÃ§Ã£o": 616,
   "Ġlazy": 617,
   "ĠÃĢÃīÃİÃķ": 618,
   "ĠÃłÃ©Ã®ÃµÃ": 619,
   "ĠíħĮìĬ¤íĬ¸": 620,
   "ĠíķľêµŃìĸ": 621,
   "MiXeD": 622,
   "ation": 623,
   "punctuation": 624,
   "ÑģÑĤÐ²ÑĥÐ¹": 625,
   "ĠÑĤÑĢÑĥÐ´": 626,
   "ĠÙħØ±ØŃØ¨Ø§": 627,
   "ĠãĥĨãĤ¹ãĥĪ": 628,
   "ĠØ§ÙĦØ¹Ø±Ø¨ÙĬØ©": 629,
   "ĠæĹ¥æľ¬èªŀ": 630,
   "ĠÐ·Ð´ÑĢÐ°Ð²ÑģÑĤÐ²ÑĥÐ¹": 631,
   "ĠÃĢÃīÃİÃķÃľ": 632,
   "ĠÃłÃ©Ã®ÃµÃ¼": 633,
   "ĠíķľêµŃìĸ´": 634
  },
  "merges": [
   [
    "a",
    "n"
   ],
   [
    "h",
    "e"
   ],
   [
    "Ñ",
    "Ģ"
   ],
   [
    "Ġ",
    "â"
   ],
   [
    "e",
    "s"
   ],
   [
    "§",
    "Ã"
   ],
   [
    "Ã",
    "§Ã"
   ],
   [
    "Ø",
    "§"
   ],
   [
    "Ġ",
    "a"
   ],
   [
    "Ġ",
    "t"
   ],
   [
    "Ġ",
    "Ð"
   ],
   [
    "Ġ",
    "Ġ"
   ],
   [
    "Ġâ",
    "Ģ"
   ],
   [
    "'",
    "t"
   ],
   [
    "0",
    "0"
   ],
   [
    "d",
    "o"
   ],
   [
    "i",
    "n"
   ],
   [
    "l",
    "l"
   ],
   [
    "r",
    "e"
   ],
   [
    "¼",
    "Ð"
   ],
   [
    "Ø",
    "¨"
   ],
   [
    "Ù",
    "Ħ"
   ],
   [
    "Ġ",
    "s"
   ],
   [
    "an",
    "d"
   ],
   [
    "Ø§",
    "ÙĦ"
   ],
   [
    "a",
    "c"
   ],
   [
    "a",
    "in"
   ],
   [
    "b",
    "r"
   ],
   [
    "e",
    "r"
   ],
   [
    "g",
    "ain"
   ],
   [
    "l",
    "d"
   ],
   [
    "o",
    "u"
   ],
   [
    "o",
    "w"
   ],
   [
    "£",
    "o"
   ],
   [
    "¸",
    "ÑĢ"
   ],
   [
    "Ð",
    "²"
   ],
   [
    "Ñ",
    "Ĥ"
   ],
   [
    "Ø",
    "±"
   ],
   [
    "Ø",
    "¹"
   ],
   [
    "Ù",
    "İ"
   ],
   [
    "ð",
    "Ł"
   ],
   [
    "Ġ",
    "w"
   ],
   [
    "Ġ",
    "Ã§Ã"
   ],
   [
    "Ġ",
    "ðŁ"
   ],
   [
    "he",
    "ll"
   ],
   [
    "Ġa",
    "gain"
   ],
   [
    "Ġt",
    "he"
   ],
   [
    "ĠÐ",
    "¼Ð"
   ],
   [
    "hell",
    "o"
   ],
   [
    "!",
    "!"
   ],
   [
    ".",
    "."
   ],
   [
    ":",
    ":"
   ],
   [
    ";",
    ";"
   ],
   [
    "?",
    "?"
   ],
   [
    "S",
    "e"
   ],
   [
    "e",
    "m"
   ],
   [
    "i",
    "t"
   ],
   [
    "l",
    "e"
   ],
   [
    "m",
    "b"
   ],
   [
    "n",
    "c"
   ],
   [
    "o",
    "l"
   ],
   [
    "o",
    "r"
   ],
   [
    "µ",
    "es"
   ],
   [
    "¸",
    "ĸ"
   ],
   [
    "Ð",
    "´"
   ],
   [
    "Ð",
    "¹"
   ],
   [
    "Ñ",
    "ĥ"
   ],
   [
    "Ø",
    "©"
   ],
   [
    "Ù",
    "ħ"
   ],
   [
    "Ù",
    "Ĭ"
   ],
   [
    "ã",
    "ĥ"
   ],
   [
    "ä",
    "¸ĸ"
   ],
   [
    "ç",
    "ķ"
   ],
   [
    "Ġ",
    "-"
   ],
   [
    "Ġ",
    "1"
   ],
   [
    "Ġ",
    "4"
   ],
   [
    "Ġ",
    "c"
   ],
   [
    "Ġ",
    "l"
   ],
   [
    "Ġ",
    "m"
   ],
   [
    "Ġ",
    "Â"
   ],
   [
    "Ġ",
    "Ã"
   ],
   [
    "Ġ",
    "í"
   ],
   [
    "Ġ",
    "and"
   ],
   [
    "Ġ",
    "hello"
   ],
   [
    "ÑĢ",
    "Ð"
   ],
   [
    "00",
    "0"
   ],
   [
    "Ø§ÙĦ",
    "Ø¹"
   ],
   [
    "ac",
    "es"
   ],
   [
    "ld",
    "n"
   ],
   [
    "ou",
    "ldn"
   ],
   [
    "ĠÃ§Ã",
    "µes"
   ],
   [
    "ĠÐ¼Ð",
    "¸ÑĢ"
   ],
   [
    "ä¸ĸ",
    "çķ"
   ],
   [
    "ä¸ĸçķ",
    "Į"
   ],
   [
    "'",
    "s"
   ],
   [
    "'",
    "v"
   ],
   [
    "'",
    "ll"
   ],
   [
    "'",
    "re"
   ],
   [
    "2",
    "3"
   ],
   [
    "5",
    "6"
   ],
   [
    "8",
    "9"
   ],
   [
    "C",
    "a"
   ],
   [
    "E",
    "R"
   ],
   [
    "M",
    "i"
   ],
   [
    "P",
    "P"
   ],
   [
    "T",
    "he"
   ],
   [
    "T",
    "it"
   ],
   [
    "U",
    "PP"
   ],
   [
    "X",
    "e"
   ],
   [
    "a",
    "b"
   ],
   [
    "a",
    "r"
   ],
   [
    "a",
    "t"
   ],
   [
    "a",
    "y"
   ],
   [
    "a",
    "z"
   ],
   [
    "a",
    "Ã§Ã"
   ],
   [
    "a",
    "re"
   ],
   [
    "b",
    "em"
   ],
   [
    "c",
    "k"
   ],
   [
    "c",
    "ar"
   ],
   [
    "d",
    "ay"
   ],
   [
    "e",
    "t"
   ],
   [
    "e",
    "w"
   ],
   [
    "e",
    "nc"
   ],
   [
    "f",
    "o"
   ],
   [
    "g",
    "le"
   ],
   [
    "h",
    "ow"
   ],
   [
    "h",
    "ouldn"
   ],
   [
    "i",
    "m"
   ],
   [
    "i",
    "o"
   ],
   [
    "i",
    "ck"
   ],
   [
    "j",
    "i"
   ],
   [
    "j",
    "u"
   ],
   [
    "k",
    "et"
   ],
   [
    "l",
    "in"
   ],
   [
    "m",
    "p"
   ],
   [
    "n",
    "s"
   ],
   [
    "n",
    "t"
   ],
   [
    "n",
    "u"
   ],
   [
    "n",
    "Ã"
   ],
   [
    "n",
    "do"
   ],
   [
    "n",
    "ew"
   ],
   [
    "o",
    "v"
   ],
   [
    "o",
    "day"
   ],
   [
    "o",
    "ji"
   ],
   [
    "p",
    "u"
   ],
   [
    "p",
    "aces"
   ],
   [
    "p",
    "are"
   ],
   [
    "q",
    "u"
   ],
   [
    "t",
    "u"
   ],
   [
    "t",
    "ab"
   ],
   [
    "u",
    "do"
   ],
   [
    "u",
    "ndo"
   ],
   [
    "y",
    "ou"
   ],
   [
    "y",
    "mb"
   ],
   [
    "¤",
    "í"
   ],
   [
    "¥",
    "½"
   ],
   [
    "¥",
    "æ"
   ],
   [
    "©",
    "Ã"
   ],
   [
    "ª",
    "ŀ"
   ],
   [
    "¬",
    "è"
   ],
   [
    "®",
    "Ã"
   ],
   [
    "°",
    "Ð²"
   ],
   [
    "°",
    "Ð¹"
   ],
   [
    "µ",
    "Ã"
   ],
   [
    "µ",
    "Ń"
   ],
   [
    "µ",
    "ÑĤ"
   ],
   [
    "·",
    "Ð´"
   ],
   [
    "¸",
    "Ð²"
   ],
   [
    "¹",
    "ãĥ"
   ],
   [
    "º",
    "car"
   ],
   [
    "½",
    "ł"
   ],
   [
    "¿",
    "ÑĢÐ"
   ],
   [
    "Ã",
    "¡"
   ],
   [
    "Ã",
    "ī"
   ],
   [
    "Ã",
    "İ"
   ],
   [
    "Ã",
    "ķ"
   ],
   [
    "Ã",
    "ľ"
   ],
   [
    "Ã",
    "©Ã"
   ],
   [
    "Ð",
    "¼Ð"
   ],
   [
    "Ð",
    "µÑĤ"
   ],
   [
    "Ñ",
    "ģ"
   ],
   [
    "Ø",
    "Ń"
   ],
   [
    "Ù",
    "Ĳ"
   ],
   [
    "Ù",
    "ĳ"
   ],
   [
    "Ù",
    "Ĵ"
   ],
   [
    "ã",
    "Ĥ"
   ],
   [
    "ä",
    "½ł"
   ],
   [
    "å",
    "¥½"
   ],
   [
    "æ",
    "Ĺ"
   ],
   [
    "ê",
    "µŃ"
   ],
   [
    "ì",
    "Ĭ"
   ],
   [
    "ì",
    "ĸ"
   ],
   [
    "Ġ",
    "("
   ],
   [
    "Ġ",
    "0"
   ],
   [
    "Ġ",
    "<"
   ],
   [
    "Ġ",
    "I"
   ],
   [
    "Ġ",
    "["
   ],
   [
    "Ġ",
    "{"
   ],
   [
    "Ġ",
    "do"
   ],
   [
    "Ġ",
    "Ø¨"
   ],
   [
    "Ġ",
    "br"
   ],
   [
    "Ġ",
    "ÑĤ"
   ],
   [
    "Ġ",
    ".."
   ],
   [
    "Ġ",
    "::"
   ],
   [
    "Ġ",
    ";;"
   ],
   [
    "Ġ",
    "??"
   ],
   [
    "Ġ",
    "Se"
   ],
   [
    "Ġ",
    "it"
   ],
   [
    "Ġ",
    "Ùħ"
   ],
   [
    "Ġ",
    "ãĥ"
   ],
   [
    "Ġ",
    "Ø§ÙĦØ¹"
   ],
   [
    "Ġ",
    "ä¸ĸçķĮ"
   ],
   [
    "Ġ",
    "89"
   ],
   [
    "Ġ",
    "Ca"
   ],
   [
    "Ġ",
    "Tit"
   ],
   [
    "Ġ",
    "UPP"
   ],
   [
    "Ġ",
    "bem"
   ],
   [
    "Ġ",
    "fo"
   ],
   [
    "Ġ",
    "how"
   ],
   [
    "Ġ",
    "ju"
   ],
   [
    "Ġ",
    "nÃ"
   ],
   [
    "Ġ",
    "ov"
   ],
   [
    "Ġ",
    "qu"
   ],
   [
    "Ġ",
    "you"
   ],
   [
    "Ġ",
    "ä½ł"
   ],
   [
    "Ġ",
    "æĹ"
   ],
   [
    "Ģ",
    "Ãī"
   ],
   [
    "Ħ",
    "ĸ"
   ],
   [
    "ħ",
    "Į"
   ],
   [
    "Ĩ",
    "ãĤ"
   ],
   [
    "Ĭ",
    "¸"
   ],
   [
    "Į",
    "į"
   ],
   [
    "İ",
    "ī"
   ],
   [
    "ĳ",
    "į"
   ],
   [
    "ķ",
    "ľ"
   ],
   [
    "ľ",
    "¬è"
   ],
   [
    "ł",
    "Ã©Ã"
   ],
   [
    "an",
    "y"
   ],
   [
    "an",
    "gle"
   ],
   [
    "ÑĢ",
    "Ñĥ"
   ],
   [
    "Ġâ",
    "Ħĸ"
   ],
   [
    "Ã§Ã",
    "ºcar"
   ],
   [
    "Ġa",
    "re"
   ],
   [
    "Ġa",
    "Ã§Ãºcar"
   ],
   [
    "Ġt",
    "oday"
   ],
   [
    "Ġt",
    "udo"
   ],
   [
    "ĠÐ",
    "·Ð´"
   ],
   [
    "ĠÐ",
    "¿ÑĢÐ"
   ],
   [
    "ĠĠ",
    "Ġ"
   ],
   [
    "ĠĠ",
    "ĠĠ"
   ],
   [
    "ĠâĢ",
    "ĵ"
   ],
   [
    "ĠâĢ",
    "Ķ"
   ],
   [
    "ĠâĢ",
    "Ļ"
   ],
   [
    "ĠâĢ",
    "ľ"
   ],
   [
    "ĠâĢ",
    "Ŀ"
   ],
   [
    "do",
    "n"
   ],
   [
    "Ø¨",
    "Ø§"
   ],
   [
    "Ø¨",
    "ÙĬ"
   ],
   [
    "Ġs",
    "houldn"
   ],
   [
    "Ġs",
    "im"
   ],
   [
    "Ġs",
    "paces"
   ],
   [
    "Ġs",
    "ymb"
   ],
   [
    "Ø§ÙĦ",
    "Ùħ"
   ],
   [
    "ac",
    "ket"
   ],
   [
    "br",
    "aces"
   ],
   [
    "br",
    "acket"
   ],
   [
    "er",
    "s"
   ],
   [
    "ow",
    "n"
   ],
   [
    "ow",
    "er"
   ],
   [
    "Ð²",
    "Ñĥ"
   ],
   [
    "ÑĤ",
    "Ð²Ñĥ"
   ],
   [
    "Ø±",
    "ØŃ"
   ],
   [
    "Ø±",
    "Ø¨ÙĬ"
   ],
   [
    "Ùİ",
    "Ùĳ"
   ],
   [
    "Ġw",
    "e"
   ],
   [
    "Ġw",
    "or"
   ],
   [
    "Ġw",
    "ouldn"
   ],
   [
    "ĠÃ§Ã",
    "£o"
   ],
   [
    "ĠðŁ",
    "Įį"
   ],
   [
    "ĠðŁ",
    "İī"
   ],
   [
    "ĠðŁ",
    "ĳį"
   ],
   [
    "Ġthe",
    "y"
   ],
   [
    "Ġthe",
    "re"
   ],
   [
    "ĠÐ¼Ð",
    "°Ð¹"
   ],
   [
    "!!",
    "!"
   ],
   [
    "em",
    "oji"
   ],
   [
    "mb",
    "ers"
   ],
   [
    "nc",
    "tu"
   ],
   [
    "ol",
    "s"
   ],
   [
    "ol",
    "Ã¡"
   ],
   [
    "or",
    "aÃ§Ã"
   ],
   [
    "Ġ-",
    "-"
   ],
   [
    "Ġ1",
    "23"
   ],
   [
    "Ġ4",
    "2"
   ],
   [
    "Ġ4",
    "56"
   ],
   [
    "Ġc",
    "an"
   ],
   [
    "Ġc",
    "oraÃ§Ã"
   ],
   [
    "Ġl",
    "az"
   ],
   [
    "Ġl",
    "ower"
   ],
   [
    "Ġm",
    "undo"
   ],
   [
    "Ġm",
    "any"
   ],
   [
    "ĠÂ",
    "½"
   ],
   [
    "ĠÂ",
    "¾"
   ],
   [
    "ĠÃ",
    "ĢÃī"
   ],
   [
    "ĠÃ",
    "łÃ©Ã"
   ],
   [
    "Ġí",
    "ħĮ"
   ],
   [
    "Ġí",
    "ķľ"
   ],
   [
    "ÑĢÐ",
    "°Ð²"
   ],
   [
    "Ø§ÙĦØ¹",
    "Ø§ÙĦÙħ"
   ],
   [
    "'v",
    "e"
   ],
   [
    "Mi",
    "Xe"
   ],
   [
    "at",
    "io"
   ],
   [
    "enc",
    "e"
   ],
   [
    "lin",
    "es"
   ],
   [
    "mp",
    "s"
   ],
   [
    "nt",
    "ence"
   ],
   [
    "nu",
    "mbers"
   ],
   [
    "new",
    "lines"
   ],
   [
    "pu",
    "nctu"
   ],
   [
    "pare",
    "ns"
   ],
   [
    "tab",
    "s"
   ],
   [
    "¤í",
    "Ĭ¸"
   ],
   [
    "¥æ",
    "ľ¬è"
   ],
   [
    "®Ã",
    "µÃ"
   ],
   [
    "¸Ð²",
    "ÐµÑĤ"
   ],
   [
    "¹ãĥ",
    "Ī"
   ],
   [
    "Ãİ",
    "Ãķ"
   ],
   [
    "Ð¼Ð",
    "¸ÑĢ"
   ],
   [
    "Ñģ",
    "ÑĤÐ²Ñĥ"
   ],
   [
    "êµŃ",
    "ìĸ"
   ],
   [
    "ìĬ",
    "¤íĬ¸"
   ],
   [
    "Ġdo",
    "g"
   ],
   [
    "ĠØ¨",
    "Ø§ÙĦØ¹Ø§ÙĦÙħ"
   ],
   [
    "Ġbr",
    "own"
   ],
   [
    "ĠÑĤ",
    "ÑĢÑĥ"
   ],
   [
    "Ġ..",
    "."
   ],
   [
    "Ġ::",
    ":"
   ],
   [
    "Ġ;;",
    ";"
   ],
   [
    "Ġ??",
    "?"
   ],
   [
    "ĠSe",
    "ntence"
   ],
   [
    "ĠÙħ",
    "Ø±ØŃ"
   ],
   [
    "Ġãĥ",
    "ĨãĤ"
   ],
   [
    "ĠØ§ÙĦØ¹",
    "Ø±Ø¨ÙĬ"
   ],
   [
    "ĠCa",
    "Se"
   ],
   [
    "ĠTit",
    "le"
   ],
   [
    "ĠUPP",
    "ER"
   ],
   [
    "Ġfo",
    "x"
   ],
   [
    "Ġju",
    "mps"
   ],
   [
    "ĠnÃ",
    "£o"
   ],
   [
    "Ġov",
    "er"
   ],
   [
    "Ġqu",
    "ick"
   ],
   [
    "Ġä½ł",
    "å¥½"
   ],
   [
    "ĠæĹ",
    "¥æľ¬è"
   ],
   [
    "ĠÐ·Ð´",
    "ÑĢÐ°Ð²"
   ],
   [
    "ĠÐ¿ÑĢÐ",
    "¸Ð²ÐµÑĤ"
   ],
   [
    "Ġsymb",
    "ols"
   ],
   [
    "bracket",
    "s"
   ],
   [
    "Ġwor",
    "ld"
   ],
   [
    "Ġ456",
    "7"
   ],
   [
    "ĠcoraÃ§Ã",
    "£o"
   ],
   [
    "Ġlaz",
    "y"
   ],
   [
    "ĠÃĢÃī",
    "ÃİÃķ"
   ],
   [
    "ĠÃłÃ©Ã",
    "®ÃµÃ"
   ],
   [
    "ĠíħĮ",
    "ìĬ¤íĬ¸"
   ],
   [
    "Ġíķľ",
    "êµŃìĸ"
   ],
   [
    "MiXe",
    "D"
   ],
   [
    "atio",
    "n"
   ],
   [
    "punctu",
    "ation"
   ],
   [
    "ÑģÑĤÐ²Ñĥ",
    "Ð¹"
   ],
   [
    "ĠÑĤÑĢÑĥ",
    "Ð´"
   ],
   [
    "ĠÙħØ±ØŃ",
    "Ø¨Ø§"
   ],
   [
    "ĠãĥĨãĤ",
    "¹ãĥĪ"
   ],
   [
    "ĠØ§ÙĦØ¹Ø±Ø¨ÙĬ",
    "Ø©"
   ],
   [
    "ĠæĹ¥æľ¬è",
    "ªŀ"
   ],
   [
    "ĠÐ·Ð´ÑĢÐ°Ð²",
    "ÑģÑĤÐ²ÑĥÐ¹"
   ],
   [
    "ĠÃĢÃīÃİÃķ",
    "Ãľ"
   ],
   [
    "ĠÃłÃ©Ã®ÃµÃ",
    "¼"
   ],
   [
    "ĠíķľêµŃìĸ",
    "´"
   ]
  ]
 }
}